{
  "version": "1.0",
  "truncation": null,
  "padding": null,
  "added_tokens": [
    {
      "id": 0,
      "content": "<|endoftext|>",
      "single_word": false,
      "lstrip": false,
      "rstrip": false,
      "normalized": false,
      "special": true
    },
    {
      "id": 1,
      "content": "<|fim_prefix|>",
      "single_word": false,
      "lstrip": false,
      "rstrip": false,
      "normalized": false,
      "special": true
    },
    {
      "id": 2,
      "content": "<|fim_middle|>",
      "single_word": false,
      "lstrip": false,
      "rstrip": false,
      "normalized": false,
      "special": true
    },
    {
      "id": 3,
      "content": "<|fim_suffix|>",
      "single_word": false,
      "lstrip": false,
      "rstrip": false,
      "normalized": false,
      "special": true
    },
    {
      "id": 4,
      "content": "<|pad|>",
      "single_word": false,
      "lstrip": false,
      "rstrip": false,
      "normalized": false,
      "special": true
    }
  ],
  "normalizer": null,
  "pre_tokenizer": {
    "type": "ByteLevel",
    "add_prefix_space": false,
    "trim_offsets": true,
    "use_regex": true
  },
  "post_processor": {
    "type": "ByteLevel",
    "add_prefix_space": true,
    "trim_offsets": false,
    "use_regex": true
  },
  "decoder": {
    "type": "ByteLevel",
    "add_prefix_space": true,
    "trim_offsets": true,
    "use_regex": true
  },
  "model": {
    "type": "BPE",
    "dropout": null,
    "unk_token": null,
    "continuing_subword_prefix": null,
    "end_of_word_suffix": null,
    "fuse_unk": false,
    "byte_fallback": false,
    "ignore_merges": false,
    "vocab": {
      "<|endoftext|>": 0,
      "<|fim_prefix|>": 1,
      "<|fim_middle|>": 2,
      "<|fim_suffix|>": 3,
      "<|pad|>": 4,
      "!": 5,
      "\"": 6,
      "#": 7,
      "$": 8,
      "%": 9,
      "&": 10,
      "'": 11,
      "(": 12,
      ")": 13,
      "*": 14,
      "+": 15,
      ",": 16,
      "-": 17,
      ".": 18,
      "/": 19,
      "0": 20,
      "1": 21,
      "2": 22,
      "3": 23,
      "4": 24,
      "5": 25,
      "6": 26,
      "7": 27,
      "8": 28,
      "9": 29,
      ":": 30,
      ";": 31,
      "<": 32,
      "=": 33,
      ">": 34,
      "?": 35,
      "@": 36,
      "A": 37,
      "B": 38,
      "C": 39,
      "D": 40,
      "E": 41,
      "F": 42,
      "G": 43,
      "H": 44,
      "I": 45,
      "J": 46,
      "K": 47,
      "L": 48,
      "M": 49,
      "N": 50,
      "O": 51,
      "P": 52,
      "Q": 53,
      "R": 54,
      "S": 55,
      "T": 56,
      "U": 57,
      "V": 58,
      "W": 59,
      "X": 60,
      "Y": 61,
      "Z": 62,
      "[": 63,
      "\\": 64,
      "]": 65,
      "^": 66,
      "_": 67,
      "`": 68,
      "a": 69,
      "b": 70,
      "c": 71,
      "d": 72,
      "e": 73,
      "f": 74,
      "g": 75,
      "h": 76,
      "i": 77,
      "j": 78,
      "k": 79,
      "l": 80,
      "m": 81,
      "n": 82,
      "o": 83,
      "p": 84,
      "q": 85,
      "r": 86,
      "s": 87,
      "t": 88,
      "u": 89,
      "v": 90,
      "w": 91,
      "x": 92,
      "y": 93,
      "z": 94,
      "{": 95,
      "|": 96,
      "}": 97,
      "~": 98,
      "¡": 99,
      "¢": 100,
      "£": 101,
      "¤": 102,
      "¥": 103,
      "¦": 104,
      "§": 105,
      "¨": 106,
      "©": 107,
      "ª": 108,
      "«": 109,
      "¬": 110,
      "®": 111,
      "¯": 112,
      "°": 113,
      "±": 114,
      "²": 115,
      "³": 116,
      "´": 117,
      "µ": 118,
      "¶": 119,
      "·": 120,
      "¸": 121,
      "¹": 122,
      "º": 123,
      "»": 124,
      "¼": 125,
      "½": 126,
      "¾": 127,
      "¿": 128,
      "À": 129,
      "Á": 130,
      "Â": 131,
      "Ã": 132,
      "Ä": 133,
      "Å": 134,
      "Æ": 135,
      "Ç": 136,
      "È": 137,
      "É": 138,
      "Ê": 139,
      "Ë": 140,
      "Ì": 141,
      "Í": 142,
      "Î": 143,
      "Ï": 144,
      "Ð": 145,
      "Ñ": 146,
      "Ò": 147,
      "Ó": 148,
      "Ô": 149,
      "Õ": 150,
      "Ö": 151,
      "×": 152,
      "Ø": 153,
      "Ù": 154,
      "Ú": 155,
      "Û": 156,
      "Ü": 157,
      "Ý": 158,
      "Þ": 159,
      "ß": 160,
      "à": 161,
      "á": 162,
      "â": 163,
      "ã": 164,
      "ä": 165,
      "å": 166,
      "æ": 167,
      "ç": 168,
      "è": 169,
      "é": 170,
      "ê": 171,
      "ë": 172,
      "ì": 173,
      "í": 174,
      "î": 175,
      "ï": 176,
      "ð": 177,
      "ñ": 178,
      "ò": 179,
      "ó": 180,
      "ô": 181,
      "õ": 182,
      "ö": 183,
      "÷": 184,
      "ø": 185,
      "ù": 186,
      "ú": 187,
      "û": 188,
      "ü": 189,
      "ý": 190,
      "þ": 191,
      "ÿ": 192,
      "Ā": 193,
      "ā": 194,
      "Ă": 195,
      "ă": 196,
      "Ą": 197,
      "ą": 198,
      "Ć": 199,
      "ć": 200,
      "Ĉ": 201,
      "ĉ": 202,
      "Ċ": 203,
      "ċ": 204,
      "Č": 205,
      "č": 206,
      "Ď": 207,
      "ď": 208,
      "Đ": 209,
      "đ": 210,
      "Ē": 211,
      "ē": 212,
      "Ĕ": 213,
      "ĕ": 214,
      "Ė": 215,
      "ė": 216,
      "Ę": 217,
      "ę": 218,
      "Ě": 219,
      "ě": 220,
      "Ĝ": 221,
      "ĝ": 222,
      "Ğ": 223,
      "ğ": 224,
      "Ġ": 225,
      "ġ": 226,
      "Ģ": 227,
      "ģ": 228,
      "Ĥ": 229,
      "ĥ": 230,
      "Ħ": 231,
      "ħ": 232,
      "Ĩ": 233,
      "ĩ": 234,
      "Ī": 235,
      "ī": 236,
      "Ĭ": 237,
      "ĭ": 238,
      "Į": 239,
      "į": 240,
      "İ": 241,
      "ı": 242,
      "Ĳ": 243,
      "ĳ": 244,
      "Ĵ": 245,
      "ĵ": 246,
      "Ķ": 247,
      "ķ": 248,
      "ĸ": 249,
      "Ĺ": 250,
      "ĺ": 251,
      "Ļ": 252,
      "ļ": 253,
      "Ľ": 254,
      "ľ": 255,
      "Ŀ": 256,
      "ŀ": 257,
      "Ł": 258,
      "ł": 259,
      "Ń": 260,
      "ĠĠ": 261,
      "ĠĠĠĠ": 262,
      "ĠĠĠ": 263,
      "ĊĠĠĠĠ": 264,
      "er": 265,
      "in": 266,
      "es": 267,
      "or": 268,
      "ĊĠĠĠĠĠĠĠ": 269,
      "err": 270,
      "ĊĠĠĠĠĠĠĠĠ": 271,
      "se": 272,
      "ms": 273,
      "msg": 274,
      "Ġ=": 275,
      "te": 276,
      "st": 277,
      "th": 278,
      "Ġ'": 279,
      "Ġ|": 280,
      "lin": 281,
      "en": 282,
      "ĊĠĠĠĠĠĠĠĠĠĠĠ": 283,
      "lf": 284,
      "self": 285,
      "ti": 286,
      "on": 287,
      "ec": 288,
      "ĊĠĠĠ": 289,
      "',": 290,
      "as": 291,
      "Ġc": 292,
      "li": 293,
      "ex": 294,
      "Ġerr": 295,
      "msgs": 296,
      "Ġself": 297,
      "ser": 298,
      "--": 299,
      "le": 300,
      "link": 301,
      "ate": 302,
      "re": 303,
      "Ġa": 304,
      "asser": 305,
      "assert": 306,
      "ĊĊĠĠĠ": 307,
      "ww": 308,
      "om": 309,
      "Ġi": 310,
      "ou": 311,
      "tt": 312,
      "esc": 313,
      "tion": 314,
      "eck": 315,
      "Ġf": 316,
      "heck": 317,
      "ps": 318,
      "htt": 319,
      "https": 320,
      "wi": 321,
      "al": 322,
      "with": 323,
      "de": 324,
      "Ġ[": 325,
      "ĊĊĠĠĠĠĠĠĠ": 326,
      "ent": 327,
      "um": 328,
      "links": 329,
      "ĠĠĠĠĠĠĠ": 330,
      "ĊĠĠĠĠĠĠĠĠĠĠĠĠĠĠĠ": 331,
      "no": 332,
      "uth": 333,
      "gor": 334,
      "Ġin": 335,
      "ategor": 336,
      "an": 337,
      "la": 338,
      "ce": 339,
      "com": 340,
      "ri": 341,
      "at": 342,
      "qu": 343,
      "est": 344,
      "//": 345,
      "num": 346,
      "line": 347,
      "|--": 348,
      "|---": 349,
      "://": 350,
      "Yes": 351,
      "ap": 352,
      "ption": 353,
      "):": 354,
      "Ġh": 355,
      "In": 356,
      "fla": 357,
      "Ġcheck": 358,
      "str": 359,
      "len": 360,
      "ĠYes": 361,
      "ar": 362,
      "up": 363,
      "desc": 364,
      "mp": 365,
      "ategory": 366,
      "mat": 367,
      "Equ": 368,
      "assertEqu": 369,
      "www": 370,
      "assertEqual": 371,
      "def": 372,
      "ali": 373,
      "Ġno": 374,
      "Ġt": 375,
      "Ġex": 376,
      "ge": 377,
      "|---|---": 378,
      "ey": 379,
      "tle": 380,
      "Ġnot": 381,
      "stan": 382,
      "alid": 383,
      "Is": 384,
      "cl": 385,
      "dfla": 386,
      "ĠD": 387,
      "Ġre": 388,
      "assertIs": 389,
      "oudfla": 390,
      "ription": 391,
      "Instan": 392,
      "assertIsInstan": 393,
      "oudflare": 394,
      "assertIsInstance": 395,
      "res": 396,
      "valid": 397,
      "ch": 398,
      "Ġ-": 399,
      "title": 400,
      "lic": 401,
      "](": 402,
      "Ġerror": 403,
      "Ġif": 404,
      "ĠDesc": 405,
      "')": 406,
      "ess": 407,
      "api": 408,
      "cor": 409,
      "dup": 410,
      "ĠA": 411,
      "duplic": 412,
      "ment": 413,
      "mess": 414,
      "Ġ{": 415,
      "ormat": 416,
      "ted": 417,
      "Ġis": 418,
      "cloudflare": 419,
      "messa": 420,
      "pr": 421,
      "Ġ|',": 422,
      "gment": 423,
      "Ġstr": 424,
      "ing": 425,
      "segment": 426,
      "list": 427,
      "format": 428,
      "tu": 429,
      "Ġ1": 430,
      "Ġs": 431,
      "Ġauth": 432,
      "message": 433,
      "00": 434,
      "pec": 435,
      "ten": 436,
      "Ġtest": 437,
      "Ġexpec": 438,
      "Ġexpected": 439,
      "ind": 440,
      "Ġfor": 441,
      "duplicate": 442,
      "##": 443,
      "Key": 444,
      "check": 445,
      "Ġ`": 446,
      "Ġwith": 447,
      "end": 448,
      "description": 449,
      "ile": 450,
      "Ġdef": 451,
      "ect": 452,
      "apiKey": 453,
      "\"\"": 454,
      "ction": 455,
      "der": 456,
      "ode": 457,
      "rom": 458,
      "rect": 459,
      "Ġlist": 460,
      "ort": 461,
      "tex": 462,
      "ck": 463,
      "con": 464,
      "un": 465,
      "Ġ'|": 466,
      "text": 467,
      "rn": 468,
      "Ġth": 469,
      "turn": 470,
      "category": 471,
      "Ġvalid": 472,
      "Ġcategory": 473,
      "mport": 474,
      "tent": 475,
      "('": 476,
      "),": 477,
      "ĠT": 478,
      "Ġhttps": 479,
      "pro": 480,
      "from": 481,
      "ist": 482,
      "ue": 483,
      "ĊĊ": 484,
      "mple": 485,
      "segments": 486,
      "content": 487,
      "ample": 488,
      "ea": 489,
      "ost": 490,
      "Ġ(": 491,
      "Ġres": 492,
      "tection": 493,
      "Ġan": 494,
      "protection": 495,
      "List": 496,
      "PI": 497,
      "ul": 498,
      "it": 499,
      "ĠC": 500,
      "Ġm": 501,
      "Ġline": 502,
      "out": 503,
      "Ġhas": 504,
      "correct": 505,
      "is": 506,
      "ĠList": 507,
      "example": 508,
      "Ġreturn": 509,
      "Ġ->": 510,
      "eader": 511,
      "()": 512,
      "am": 513,
      "auth": 514,
      "error": 515,
      "ult": 516,
      "03": 517,
      "HT": 518,
      "Ġo": 519,
      "Ġimport": 520,
      "app": 521,
      "Ġthe": 522,
      "..": 523,
      "ke": 524,
      "ub": 525,
      "Ġlinks": 526,
      "001": 527,
      "append": 528,
      "be": 529,
      "Ġr": 530,
      "Ġ'##": 531,
      "aw": 532,
      "ies": 533,
      "ly": 534,
      "Ġ]": 535,
      "Ġ'(": 536,
      "Ġcor": 537,
      "without": 538,
      "Ġ[]": 539,
      "ategories": 540,
      "Ġhost": 541,
      "cors": 542,
      "eaders": 543,
      "TP": 544,
      "ba": 545,
      "code": 546,
      "file": 547,
      "key": 548,
      "ry": 549,
      "ĠHT": 550,
      "lines": 551,
      "match": 552,
      "ĠAuth": 553,
      "index": 554,
      "Ġvalidate": 555,
      "keys": 556,
      "ĠHTTP": 557,
      "():": 558,
      "OR": 559,
      "Test": 560,
      "ake": 561,
      "ct": 562,
      "gs": 563,
      "Ġlink": 564,
      "entry": 565,
      "\"\"\"": 566,
      "ĠCOR": 567,
      "ĠHTTPS": 568,
      "ĠCORS": 569,
      "ow": 570,
      "rue": 571,
      "Ġdescription": 572,
      "tick": 573,
      "Ġsy": 574,
      "cktick": 575,
      "Ġraw": 576,
      "backtick": 577,
      "API": 578,
      "No": 579,
      "]:": 580,
      "ir": 581,
      "sub": 582,
      "ĊĊĠĠĠĠĠĠĠĠĠĠĠĠĠĠĠ": 583,
      "Ġ0": 584,
      "ĠF": 585,
      "Ġnum": 586,
      "star": 587,
      "get": 588,
      "Ġrequ": 589,
      "chor": 590,
      "Ġsh": 591,
      "Ġresp": 592,
      "Ġand": 593,
      "Ġ'###": 594,
      "subTest": 595,
      "start": 596,
      "']": 597,
      "__": 598,
      "ed": 599,
      "ha": 600,
      "ld": 601,
      "|',": 602,
      "Ġ'|---|---": 603,
      "ould": 604,
      "|---|',": 605,
      "|---|---|---|',": 606,
      "ĠDescription": 607,
      "Ġcors": 608,
      "Ġshould": 609,
      "Ġ'|---|---|---|---|---|',": 610,
      "'(": 611,
      "':": 612,
      "*-": 613,
      "gent": 614,
      "Ġp": 615,
      "int": 616,
      "tic": 617,
      "onse": 618,
      "Ġcode": 619,
      "and": 620,
      "anchor": 621,
      "Ġ-*-": 622,
      "ame": 623,
      "403": 624,
      "ax": 625,
      "dex": 626,
      "gth": 627,
      "par": 628,
      "pha": 629,
      "sp": 630,
      "user": 631,
      "Ġe": 632,
      "Ġor": 633,
      "Ġdesc": 634,
      "Ġtitle": 635,
      "Ġpr": 636,
      "Ġtext": 637,
      "Ġsegments": 638,
      "Ġ\"\"\"": 639,
      "Ġfile": 640,
      "Ġ['": 641,
      "ries": 642,
      "length": 643,
      "uple": 644,
      "result": 645,
      "ĠAPI": 646,
      "checker": 647,
      "unc": 648,
      "ĠTrue": 649,
      "Ġresult": 650,
      "betic": 651,
      "Ġsys": 652,
      "Ġrequest": 653,
      "phabetic": 654,
      "Ġprint": 655,
      "phabetical": 656,
      "])": 657,
      "fi": 658,
      "headers": 659,
      "if": 660,
      "king": 661,
      "od": 662,
      "per": 663,
      "rr": 664,
      "ver": 665,
      "wor": 666,
      "yes": 667,
      "})": 668,
      "Ġ#": 669,
      "Ġb": 670,
      "Ġse": 671,
      "Ġlen": 672,
      "Ġend": 673,
      "Ġ'',": 674,
      "Ġcon": 675,
      "alse": 676,
      "entries": 677,
      "flags": 678,
      "lename": 679,
      "unit": 680,
      "Ġoption": 681,
      "...": 682,
      "param": 683,
      ")',": 684,
      "503": 685,
      "AA": 686,
      "ain": 687,
      "act": 688,
      "agent": 689,
      "loudflare": 690,
      "ol": 691,
      "ponse": 692,
      "swith": 693,
      "ut": 694,
      "ĊĊĠĠĠĠĠĠĠĠĠĠĠ": 695,
      "Ġd": 696,
      "ĠIn": 697,
      "Ġget": 698,
      "ĊĠĠĠĠĊĠĠĠ": 699,
      "only": 700,
      "Ġfind": 701,
      "Ġint": 702,
      "arg": 703,
      "irst": 704,
      "Ġrequests": 705,
      "working": 706,
      "AB": 707,
      "Res": 708,
      "categories": 709,
      "host": 710,
      "his": 711,
      "import": 712,
      "ve": 713,
      "}'": 714,
      "ĠN": 715,
      "Ġen": 716,
      "Ġas": 717,
      "invalid": 718,
      "Ġ==": 719,
      "lit": 720,
      "red": 721,
      "Ġal": 722,
      "Ġfake": 723,
      "Ġincorrect": 724,
      "rip": 725,
      "Ġheaders": 726,
      "char": 727,
      "Ġof": 728,
      "split": 729,
      "filename": 730,
      "oding": 731,
      "Ġcont": 732,
      "utf": 733,
      "ĠIndex": 734,
      "Response": 735,
      "!=": 736,
      "ation": 737,
      "has": 738,
      "rou": 739,
      "val": 740,
      "Ġ\"": 741,
      "Ġ2": 742,
      "Ġbe": 743,
      "Ġstart": 744,
      "Ġ!=": 745,
      "Ġval": 746,
      "incorrect": 747,
      "ĊĠĠĠĠĠĠĠĠĊĠĠĠĠĠĠĠ": 748,
      "strip": 749,
      "Ġfirst": 750,
      "alphabetical": 751,
      "ception": 752,
      "Ġexce": 753,
      "resp": 754,
      "tuation": 755,
      "Ġ[])": 756,
      "startswith": 757,
      "Ġpunc": 758,
      "Ġvalue": 759,
      "))": 760,
      ")[": 761,
      "36": 762,
      "37": 763,
      "537": 764,
      "<>": 765,
      "BA": 766,
      "BB": 767,
      "Check": 768,
      "ER": 769,
      "Err": 770,
      "We": 771,
      "[^": 772,
      "]+": 773,
      "`',": 774,
      "ase": 775,
      "ict": 776,
      "lse": 777,
      "me": 778,
      "of": 779,
      "pa": 780,
      "pt": 781,
      "ple": 782,
      "us": 783,
      "yp": 784,
      "zi": 785,
      "Ġ)": 786,
      "Ġ*": 787,
      "ĠB": 788,
      "Ġduplic": 789,
      "Ġsegment": 790,
      "Ġduplicate": 791,
      "Ġentry": 792,
      "Ġutf": 793,
      "ore": 794,
      "order": 795,
      "sed": 796,
      "the": 797,
      "Ġ'*": 798,
      "Ġ'`": 799,
      "Ġcategories": 800,
      "Ġcoding": 801,
      "exit": 802,
      "return": 803,
      "Ġare": 804,
      "our": 805,
      "ates": 806,
      "Ġto": 807,
      "Ġtuple": 808,
      "](#": 809,
      "Ġmin": 810,
      "akeResponse": 811,
      "ĠFalse": 812,
      "ĠFakeResponse": 813,
      "Ġelse": 814,
      "acter": 815,
      "Ġdo": 816,
      "ERR": 817,
      "Error": 818,
      "[^\\": 819,
      "Ġduplicates": 820,
      "'{": 821,
      "\\(": 822,
      "ad": 823,
      "ave": 824,
      "ber": 825,
      "cf": 826,
      "dred": 827,
      "grou": 828,
      "har": 829,
      "hun": 830,
      "itle": 831,
      "kno": 832,
      "lon": 833,
      "nd": 834,
      "nt": 835,
      "row": 836,
      "sand": 837,
      "wn": 838,
      "your": 839,
      "Ġ+": 840,
      "Ġ:": 841,
      "ĠI": 842,
      "ĠS": 843,
      "ĠW": 844,
      "Ġw": 845,
      "Ġmsg": 846,
      "Ġprotection": 847,
      "Ġunit": 848,
      "Ġonly": 849,
      "Ġyour": 850,
      "ere": 851,
      "inue": 852,
      "thou": 853,
      "Ġ|'": 854,
      "one": 855,
      "Ġchar": 856,
      "exception": 857,
      "ound": 858,
      "Ġinvalid": 859,
      "Ġhave": 860,
      "args": 861,
      "ĠTuple": 862,
      "contents": 863,
      "Ġany": 864,
      "()<>": 865,
      "Ġcorrect": 866,
      "Ġbrow": 867,
      "unity": 868,
      "argv": 869,
      "ĠNone": 870,
      "Ġcontinue": 871,
      "Ġexcept": 872,
      "Ġpunctuation": 873,
      "group": 874,
      "hundred": 875,
      "known": 876,
      "long": 877,
      "ntax": 878,
      "thousand": 879,
      "Ġcharacter": 880,
      "exceptions": 881,
      "()<>]+": 882,
      "Ġbrowser": 883,
      "\".": 884,
      ")')": 885,
      ".',": 886,
      "01": 887,
      "64": 888,
      "='": 889,
      "AC": 890,
      "False": 891,
      "Geck": 892,
      "Kit": 893,
      "KHT": 894,
      "ML": 895,
      "Mo": 896,
      "Ra": 897,
      "True": 898,
      "This": 899,
      "Un": 900,
      "\\]": 901,
      "bKit": 902,
      "cu": 903,
      "den": 904,
      "find": 905,
      "found": 906,
      "hen": 907,
      "itt": 908,
      "lla": 909,
      "low": 910,
      "min": 911,
      "ne": 912,
      "ool": 913,
      "osed": 914,
      "pile": 915,
      "pub": 916,
      "punc": 917,
      "pple": 918,
      "tIn": 919,
      "tali": 920,
      "zed": 921,
      "|')": 922,
      "âĢ": 923,
      "Ġ3": 924,
      "Ġ<": 925,
      "ĠU": 926,
      "Ġli": 927,
      "ĠGeck": 928,
      "Ġne": 929,
      "section": 930,
      "assertNo": 931,
      "assertFalse": 932,
      "umn": 933,
      "compile": 934,
      "Ġheader": 935,
      "closed": 936,
      "Ġerrors": 937,
      "apis": 938,
      "apitali": 939,
      "ĠApple": 940,
      "Ġ10": 941,
      "Ġspa": 942,
      "cond": 943,
      "unitt": 944,
      "('|')": 945,
      "ĠThis": 946,
      "Ġmain": 947,
      "iss": 948,
      "errors": 949,
      "Ġsyntax": 950,
      "backticks": 951,
      "ird": 952,
      "andom": 953,
      "rrent": 954,
      "very": 955,
      "Ġseen": 956,
      "olumn": 957,
      "Ġenclosed": 958,
      "Ġalphabetical": 959,
      "Ġ\"...": 960,
      "WebKit": 961,
      "ype": 962,
      "zilla": 963,
      "Ġdoes": 964,
      "KHTML": 965,
      "Mozilla": 966,
      "Unknown": 967,
      "public": 968,
      "Ġlike": 969,
      "ĠGecko": 970,
      "assertNotIn": 971,
      "apitalized": 972,
      "ĠAppleWebKit": 973,
      "Ġspace": 974,
      "unittest": 975,
      "'):": 976,
      "(.": 977,
      "(?": 978,
      ")\"": 979,
      ")'": 980,
      "*\\": 981,
      ".\"\"\"": 982,
      "15": 983,
      "Categories": 984,
      "Cloudflare": 985,
      "Ex": 986,
      "Every": 987,
      "IN": 988,
      "IT": 989,
      "LE": 990,
      "Lin": 991,
      "LIN": 992,
      "Ple": 993,
      "Re": 994,
      "Ser": 995,
      "TIT": 996,
      "Wind": 997,
      "\\[": 998,
      "].": 999
    },
    "merges": [
      [
        "Ġ",
        "Ġ"
      ],
      [
        "ĠĠ",
        "ĠĠ"
      ],
      [
        "ĠĠ",
        "Ġ"
      ],
      [
        "Ċ",
        "ĠĠĠĠ"
      ],
      [
        "e",
        "r"
      ],
      [
        "i",
        "n"
      ],
      [
        "e",
        "s"
      ],
      [
        "o",
        "r"
      ],
      [
        "ĊĠĠĠĠ",
        "ĠĠĠ"
      ],
      [
        "er",
        "r"
      ],
      [
        "ĊĠĠĠĠ",
        "ĠĠĠĠ"
      ],
      [
        "s",
        "e"
      ],
      [
        "m",
        "s"
      ],
      [
        "ms",
        "g"
      ],
      [
        "Ġ",
        "="
      ],
      [
        "t",
        "e"
      ],
      [
        "s",
        "t"
      ],
      [
        "t",
        "h"
      ],
      [
        "Ġ",
        "'"
      ],
      [
        "Ġ",
        "|"
      ],
      [
        "l",
        "in"
      ],
      [
        "e",
        "n"
      ],
      [
        "ĊĠĠĠĠĠĠĠĠ",
        "ĠĠĠ"
      ],
      [
        "l",
        "f"
      ],
      [
        "se",
        "lf"
      ],
      [
        "t",
        "i"
      ],
      [
        "o",
        "n"
      ],
      [
        "e",
        "c"
      ],
      [
        "Ċ",
        "ĠĠĠ"
      ],
      [
        "'",
        ","
      ],
      [
        "a",
        "s"
      ],
      [
        "Ġ",
        "c"
      ],
      [
        "l",
        "i"
      ],
      [
        "e",
        "x"
      ],
      [
        "Ġ",
        "err"
      ],
      [
        "msg",
        "s"
      ],
      [
        "Ġ",
        "self"
      ],
      [
        "s",
        "er"
      ],
      [
        "-",
        "-"
      ],
      [
        "l",
        "e"
      ],
      [
        "lin",
        "k"
      ],
      [
        "a",
        "te"
      ],
      [
        "r",
        "e"
      ],
      [
        "Ġ",
        "a"
      ],
      [
        "as",
        "ser"
      ],
      [
        "asser",
        "t"
      ],
      [
        "Ċ",
        "ĊĠĠĠ"
      ],
      [
        "w",
        "w"
      ],
      [
        "o",
        "m"
      ],
      [
        "Ġ",
        "i"
      ],
      [
        "o",
        "u"
      ],
      [
        "t",
        "t"
      ],
      [
        "es",
        "c"
      ],
      [
        "ti",
        "on"
      ],
      [
        "ec",
        "k"
      ],
      [
        "Ġ",
        "f"
      ],
      [
        "h",
        "eck"
      ],
      [
        "p",
        "s"
      ],
      [
        "h",
        "tt"
      ],
      [
        "htt",
        "ps"
      ],
      [
        "w",
        "i"
      ],
      [
        "a",
        "l"
      ],
      [
        "wi",
        "th"
      ],
      [
        "d",
        "e"
      ],
      [
        "Ġ",
        "["
      ],
      [
        "Ċ",
        "ĊĠĠĠĠĠĠĠ"
      ],
      [
        "en",
        "t"
      ],
      [
        "u",
        "m"
      ],
      [
        "link",
        "s"
      ],
      [
        "ĠĠĠĠ",
        "ĠĠĠ"
      ],
      [
        "ĊĠĠĠĠĠĠĠĠ",
        "ĠĠĠĠĠĠĠ"
      ],
      [
        "n",
        "o"
      ],
      [
        "u",
        "th"
      ],
      [
        "g",
        "or"
      ],
      [
        "Ġ",
        "in"
      ],
      [
        "ate",
        "gor"
      ],
      [
        "a",
        "n"
      ],
      [
        "l",
        "a"
      ],
      [
        "c",
        "e"
      ],
      [
        "c",
        "om"
      ],
      [
        "r",
        "i"
      ],
      [
        "a",
        "t"
      ],
      [
        "q",
        "u"
      ],
      [
        "es",
        "t"
      ],
      [
        "/",
        "/"
      ],
      [
        "n",
        "um"
      ],
      [
        "lin",
        "e"
      ],
      [
        "|",
        "--"
      ],
      [
        "|--",
        "-"
      ],
      [
        ":",
        "//"
      ],
      [
        "Y",
        "es"
      ],
      [
        "a",
        "p"
      ],
      [
        "p",
        "tion"
      ],
      [
        ")",
        ":"
      ],
      [
        "Ġ",
        "h"
      ],
      [
        "I",
        "n"
      ],
      [
        "f",
        "la"
      ],
      [
        "Ġc",
        "heck"
      ],
      [
        "st",
        "r"
      ],
      [
        "l",
        "en"
      ],
      [
        "Ġ",
        "Yes"
      ],
      [
        "a",
        "r"
      ],
      [
        "u",
        "p"
      ],
      [
        "d",
        "esc"
      ],
      [
        "m",
        "p"
      ],
      [
        "ategor",
        "y"
      ],
      [
        "m",
        "at"
      ],
      [
        "E",
        "qu"
      ],
      [
        "assert",
        "Equ"
      ],
      [
        "ww",
        "w"
      ],
      [
        "assertEqu",
        "al"
      ],
      [
        "de",
        "f"
      ],
      [
        "a",
        "li"
      ],
      [
        "Ġ",
        "no"
      ],
      [
        "Ġ",
        "t"
      ],
      [
        "Ġ",
        "ex"
      ],
      [
        "g",
        "e"
      ],
      [
        "|---",
        "|---"
      ],
      [
        "e",
        "y"
      ],
      [
        "t",
        "le"
      ],
      [
        "Ġno",
        "t"
      ],
      [
        "st",
        "an"
      ],
      [
        "ali",
        "d"
      ],
      [
        "I",
        "s"
      ],
      [
        "c",
        "l"
      ],
      [
        "d",
        "fla"
      ],
      [
        "Ġ",
        "D"
      ],
      [
        "Ġ",
        "re"
      ],
      [
        "assert",
        "Is"
      ],
      [
        "ou",
        "dfla"
      ],
      [
        "ri",
        "ption"
      ],
      [
        "In",
        "stan"
      ],
      [
        "assertIs",
        "Instan"
      ],
      [
        "oudfla",
        "re"
      ],
      [
        "assertIsInstan",
        "ce"
      ],
      [
        "r",
        "es"
      ],
      [
        "v",
        "alid"
      ],
      [
        "c",
        "h"
      ],
      [
        "Ġ",
        "-"
      ],
      [
        "ti",
        "tle"
      ],
      [
        "li",
        "c"
      ],
      [
        "]",
        "("
      ],
      [
        "Ġerr",
        "or"
      ],
      [
        "Ġi",
        "f"
      ],
      [
        "ĠD",
        "esc"
      ],
      [
        "'",
        ")"
      ],
      [
        "es",
        "s"
      ],
      [
        "ap",
        "i"
      ],
      [
        "c",
        "or"
      ],
      [
        "d",
        "up"
      ],
      [
        "Ġ",
        "A"
      ],
      [
        "dup",
        "lic"
      ],
      [
        "m",
        "ent"
      ],
      [
        "m",
        "ess"
      ],
      [
        "Ġ",
        "{"
      ],
      [
        "or",
        "mat"
      ],
      [
        "te",
        "d"
      ],
      [
        "Ġi",
        "s"
      ],
      [
        "cl",
        "oudflare"
      ],
      [
        "mess",
        "a"
      ],
      [
        "p",
        "r"
      ],
      [
        "Ġ|",
        "',"
      ],
      [
        "g",
        "ment"
      ],
      [
        "Ġ",
        "str"
      ],
      [
        "in",
        "g"
      ],
      [
        "se",
        "gment"
      ],
      [
        "li",
        "st"
      ],
      [
        "f",
        "ormat"
      ],
      [
        "t",
        "u"
      ],
      [
        "Ġ",
        "1"
      ],
      [
        "Ġ",
        "s"
      ],
      [
        "Ġa",
        "uth"
      ],
      [
        "messa",
        "ge"
      ],
      [
        "0",
        "0"
      ],
      [
        "p",
        "ec"
      ],
      [
        "te",
        "n"
      ],
      [
        "Ġt",
        "est"
      ],
      [
        "Ġex",
        "pec"
      ],
      [
        "Ġexpec",
        "ted"
      ],
      [
        "in",
        "d"
      ],
      [
        "Ġf",
        "or"
      ],
      [
        "duplic",
        "ate"
      ],
      [
        "#",
        "#"
      ],
      [
        "K",
        "ey"
      ],
      [
        "c",
        "heck"
      ],
      [
        "Ġ",
        "`"
      ],
      [
        "Ġ",
        "with"
      ],
      [
        "en",
        "d"
      ],
      [
        "desc",
        "ription"
      ],
      [
        "i",
        "le"
      ],
      [
        "Ġ",
        "def"
      ],
      [
        "ec",
        "t"
      ],
      [
        "api",
        "Key"
      ],
      [
        "\"",
        "\""
      ],
      [
        "c",
        "tion"
      ],
      [
        "d",
        "er"
      ],
      [
        "o",
        "de"
      ],
      [
        "r",
        "om"
      ],
      [
        "r",
        "ect"
      ],
      [
        "Ġ",
        "list"
      ],
      [
        "or",
        "t"
      ],
      [
        "te",
        "x"
      ],
      [
        "c",
        "k"
      ],
      [
        "c",
        "on"
      ],
      [
        "u",
        "n"
      ],
      [
        "Ġ'",
        "|"
      ],
      [
        "tex",
        "t"
      ],
      [
        "r",
        "n"
      ],
      [
        "Ġ",
        "th"
      ],
      [
        "tu",
        "rn"
      ],
      [
        "c",
        "ategory"
      ],
      [
        "Ġ",
        "valid"
      ],
      [
        "Ġc",
        "ategory"
      ],
      [
        "mp",
        "ort"
      ],
      [
        "ten",
        "t"
      ],
      [
        "(",
        "'"
      ],
      [
        ")",
        ","
      ],
      [
        "Ġ",
        "T"
      ],
      [
        "Ġ",
        "https"
      ],
      [
        "pr",
        "o"
      ],
      [
        "f",
        "rom"
      ],
      [
        "i",
        "st"
      ],
      [
        "u",
        "e"
      ],
      [
        "Ċ",
        "Ċ"
      ],
      [
        "mp",
        "le"
      ],
      [
        "segment",
        "s"
      ],
      [
        "con",
        "tent"
      ],
      [
        "a",
        "mple"
      ],
      [
        "e",
        "a"
      ],
      [
        "o",
        "st"
      ],
      [
        "Ġ",
        "("
      ],
      [
        "Ġ",
        "res"
      ],
      [
        "te",
        "ction"
      ],
      [
        "Ġa",
        "n"
      ],
      [
        "pro",
        "tection"
      ],
      [
        "L",
        "ist"
      ],
      [
        "P",
        "I"
      ],
      [
        "u",
        "l"
      ],
      [
        "i",
        "t"
      ],
      [
        "Ġ",
        "C"
      ],
      [
        "Ġ",
        "m"
      ],
      [
        "Ġ",
        "line"
      ],
      [
        "ou",
        "t"
      ],
      [
        "Ġh",
        "as"
      ],
      [
        "cor",
        "rect"
      ],
      [
        "i",
        "s"
      ],
      [
        "Ġ",
        "List"
      ],
      [
        "ex",
        "ample"
      ],
      [
        "Ġre",
        "turn"
      ],
      [
        "Ġ-",
        ">"
      ],
      [
        "ea",
        "der"
      ],
      [
        "(",
        ")"
      ],
      [
        "a",
        "m"
      ],
      [
        "a",
        "uth"
      ],
      [
        "err",
        "or"
      ],
      [
        "ul",
        "t"
      ],
      [
        "0",
        "3"
      ],
      [
        "H",
        "T"
      ],
      [
        "Ġ",
        "o"
      ],
      [
        "Ġi",
        "mport"
      ],
      [
        "ap",
        "p"
      ],
      [
        "Ġth",
        "e"
      ],
      [
        ".",
        "."
      ],
      [
        "k",
        "e"
      ],
      [
        "u",
        "b"
      ],
      [
        "Ġ",
        "links"
      ],
      [
        "00",
        "1"
      ],
      [
        "app",
        "end"
      ],
      [
        "b",
        "e"
      ],
      [
        "Ġ",
        "r"
      ],
      [
        "Ġ'",
        "##"
      ],
      [
        "a",
        "w"
      ],
      [
        "i",
        "es"
      ],
      [
        "l",
        "y"
      ],
      [
        "Ġ",
        "]"
      ],
      [
        "Ġ'",
        "("
      ],
      [
        "Ġc",
        "or"
      ],
      [
        "with",
        "out"
      ],
      [
        "Ġ[",
        "]"
      ],
      [
        "ategor",
        "ies"
      ],
      [
        "Ġh",
        "ost"
      ],
      [
        "cor",
        "s"
      ],
      [
        "eader",
        "s"
      ],
      [
        "T",
        "P"
      ],
      [
        "b",
        "a"
      ],
      [
        "c",
        "ode"
      ],
      [
        "f",
        "ile"
      ],
      [
        "k",
        "ey"
      ],
      [
        "r",
        "y"
      ],
      [
        "Ġ",
        "HT"
      ],
      [
        "lin",
        "es"
      ],
      [
        "mat",
        "ch"
      ],
      [
        "ĠA",
        "uth"
      ],
      [
        "ind",
        "ex"
      ],
      [
        "Ġvalid",
        "ate"
      ],
      [
        "key",
        "s"
      ],
      [
        "ĠHT",
        "TP"
      ],
      [
        "(",
        "):"
      ],
      [
        "O",
        "R"
      ],
      [
        "T",
        "est"
      ],
      [
        "a",
        "ke"
      ],
      [
        "c",
        "t"
      ],
      [
        "g",
        "s"
      ],
      [
        "Ġ",
        "link"
      ],
      [
        "ent",
        "ry"
      ],
      [
        "\"\"",
        "\""
      ],
      [
        "ĠC",
        "OR"
      ],
      [
        "ĠHTTP",
        "S"
      ],
      [
        "ĠCOR",
        "S"
      ],
      [
        "o",
        "w"
      ],
      [
        "r",
        "ue"
      ],
      [
        "Ġ",
        "description"
      ],
      [
        "ti",
        "ck"
      ],
      [
        "Ġs",
        "y"
      ],
      [
        "ck",
        "tick"
      ],
      [
        "Ġr",
        "aw"
      ],
      [
        "ba",
        "cktick"
      ],
      [
        "A",
        "PI"
      ],
      [
        "N",
        "o"
      ],
      [
        "]",
        ":"
      ],
      [
        "i",
        "r"
      ],
      [
        "s",
        "ub"
      ],
      [
        "Ċ",
        "ĊĠĠĠĠĠĠĠĠĠĠĠĠĠĠĠ"
      ],
      [
        "Ġ",
        "0"
      ],
      [
        "Ġ",
        "F"
      ],
      [
        "Ġ",
        "num"
      ],
      [
        "st",
        "ar"
      ],
      [
        "ge",
        "t"
      ],
      [
        "Ġre",
        "qu"
      ],
      [
        "ch",
        "or"
      ],
      [
        "Ġs",
        "h"
      ],
      [
        "Ġres",
        "p"
      ],
      [
        "Ġan",
        "d"
      ],
      [
        "Ġ'##",
        "#"
      ],
      [
        "sub",
        "Test"
      ],
      [
        "star",
        "t"
      ],
      [
        "'",
        "]"
      ],
      [
        "_",
        "_"
      ],
      [
        "e",
        "d"
      ],
      [
        "h",
        "a"
      ],
      [
        "l",
        "d"
      ],
      [
        "|",
        "',"
      ],
      [
        "Ġ'",
        "|---|---"
      ],
      [
        "ou",
        "ld"
      ],
      [
        "|---",
        "|',"
      ],
      [
        "|---|---",
        "|---|',"
      ],
      [
        "ĠDesc",
        "ription"
      ],
      [
        "Ġcor",
        "s"
      ],
      [
        "Ġsh",
        "ould"
      ],
      [
        "Ġ'|---|---",
        "|---|---|---|',"
      ],
      [
        "'",
        "("
      ],
      [
        "'",
        ":"
      ],
      [
        "*",
        "-"
      ],
      [
        "g",
        "ent"
      ],
      [
        "Ġ",
        "p"
      ],
      [
        "in",
        "t"
      ],
      [
        "ti",
        "c"
      ],
      [
        "on",
        "se"
      ],
      [
        "Ġc",
        "ode"
      ],
      [
        "an",
        "d"
      ],
      [
        "an",
        "chor"
      ],
      [
        "Ġ-",
        "*-"
      ],
      [
        "am",
        "e"
      ],
      [
        "4",
        "03"
      ],
      [
        "a",
        "x"
      ],
      [
        "d",
        "ex"
      ],
      [
        "g",
        "th"
      ],
      [
        "p",
        "ar"
      ],
      [
        "p",
        "ha"
      ],
      [
        "s",
        "p"
      ],
      [
        "u",
        "ser"
      ],
      [
        "Ġ",
        "e"
      ],
      [
        "Ġ",
        "or"
      ],
      [
        "Ġ",
        "desc"
      ],
      [
        "Ġ",
        "title"
      ],
      [
        "Ġ",
        "pr"
      ],
      [
        "Ġ",
        "text"
      ],
      [
        "Ġ",
        "segments"
      ],
      [
        "Ġ",
        "\"\"\""
      ],
      [
        "Ġf",
        "ile"
      ],
      [
        "Ġ[",
        "'"
      ],
      [
        "ri",
        "es"
      ],
      [
        "len",
        "gth"
      ],
      [
        "up",
        "le"
      ],
      [
        "res",
        "ult"
      ],
      [
        "ĠA",
        "PI"
      ],
      [
        "check",
        "er"
      ],
      [
        "un",
        "c"
      ],
      [
        "ĠT",
        "rue"
      ],
      [
        "Ġres",
        "ult"
      ],
      [
        "be",
        "tic"
      ],
      [
        "Ġsy",
        "s"
      ],
      [
        "Ġrequ",
        "est"
      ],
      [
        "pha",
        "betic"
      ],
      [
        "Ġpr",
        "int"
      ],
      [
        "phabetic",
        "al"
      ],
      [
        "]",
        ")"
      ],
      [
        "f",
        "i"
      ],
      [
        "h",
        "eaders"
      ],
      [
        "i",
        "f"
      ],
      [
        "k",
        "ing"
      ],
      [
        "o",
        "d"
      ],
      [
        "p",
        "er"
      ],
      [
        "r",
        "r"
      ],
      [
        "v",
        "er"
      ],
      [
        "w",
        "or"
      ],
      [
        "y",
        "es"
      ],
      [
        "}",
        ")"
      ],
      [
        "Ġ",
        "#"
      ],
      [
        "Ġ",
        "b"
      ],
      [
        "Ġ",
        "se"
      ],
      [
        "Ġ",
        "len"
      ],
      [
        "Ġ",
        "end"
      ],
      [
        "Ġ'",
        "',"
      ],
      [
        "Ġc",
        "on"
      ],
      [
        "al",
        "se"
      ],
      [
        "ent",
        "ries"
      ],
      [
        "fla",
        "gs"
      ],
      [
        "len",
        "ame"
      ],
      [
        "un",
        "it"
      ],
      [
        "Ġo",
        "ption"
      ],
      [
        "..",
        "."
      ],
      [
        "par",
        "am"
      ],
      [
        ")",
        "',"
      ],
      [
        "5",
        "03"
      ],
      [
        "A",
        "A"
      ],
      [
        "a",
        "in"
      ],
      [
        "a",
        "ct"
      ],
      [
        "a",
        "gent"
      ],
      [
        "l",
        "oudflare"
      ],
      [
        "o",
        "l"
      ],
      [
        "p",
        "onse"
      ],
      [
        "s",
        "with"
      ],
      [
        "u",
        "t"
      ],
      [
        "Ċ",
        "ĊĠĠĠĠĠĠĠĠĠĠĠ"
      ],
      [
        "Ġ",
        "d"
      ],
      [
        "Ġ",
        "In"
      ],
      [
        "Ġ",
        "get"
      ],
      [
        "ĊĠĠĠĠ",
        "ĊĠĠĠ"
      ],
      [
        "on",
        "ly"
      ],
      [
        "Ġf",
        "ind"
      ],
      [
        "Ġin",
        "t"
      ],
      [
        "ar",
        "g"
      ],
      [
        "ir",
        "st"
      ],
      [
        "Ġrequest",
        "s"
      ],
      [
        "wor",
        "king"
      ],
      [
        "A",
        "B"
      ],
      [
        "R",
        "es"
      ],
      [
        "c",
        "ategories"
      ],
      [
        "h",
        "ost"
      ],
      [
        "h",
        "is"
      ],
      [
        "i",
        "mport"
      ],
      [
        "v",
        "e"
      ],
      [
        "}",
        "'"
      ],
      [
        "Ġ",
        "N"
      ],
      [
        "Ġ",
        "en"
      ],
      [
        "Ġ",
        "as"
      ],
      [
        "in",
        "valid"
      ],
      [
        "Ġ=",
        "="
      ],
      [
        "li",
        "t"
      ],
      [
        "re",
        "d"
      ],
      [
        "Ġa",
        "l"
      ],
      [
        "Ġf",
        "ake"
      ],
      [
        "Ġin",
        "correct"
      ],
      [
        "ri",
        "p"
      ],
      [
        "Ġh",
        "eaders"
      ],
      [
        "ch",
        "ar"
      ],
      [
        "Ġo",
        "f"
      ],
      [
        "sp",
        "lit"
      ],
      [
        "fi",
        "lename"
      ],
      [
        "od",
        "ing"
      ],
      [
        "Ġcon",
        "t"
      ],
      [
        "ut",
        "f"
      ],
      [
        "ĠIn",
        "dex"
      ],
      [
        "Res",
        "ponse"
      ],
      [
        "!",
        "="
      ],
      [
        "a",
        "tion"
      ],
      [
        "h",
        "as"
      ],
      [
        "r",
        "ou"
      ],
      [
        "v",
        "al"
      ],
      [
        "Ġ",
        "\""
      ],
      [
        "Ġ",
        "2"
      ],
      [
        "Ġ",
        "be"
      ],
      [
        "Ġ",
        "start"
      ],
      [
        "Ġ",
        "!="
      ],
      [
        "Ġ",
        "val"
      ],
      [
        "in",
        "correct"
      ],
      [
        "ĊĠĠĠĠĠĠĠĠ",
        "ĊĠĠĠĠĠĠĠ"
      ],
      [
        "st",
        "rip"
      ],
      [
        "Ġf",
        "irst"
      ],
      [
        "al",
        "phabetical"
      ],
      [
        "ce",
        "ption"
      ],
      [
        "Ġex",
        "ce"
      ],
      [
        "res",
        "p"
      ],
      [
        "tu",
        "ation"
      ],
      [
        "Ġ[]",
        ")"
      ],
      [
        "start",
        "swith"
      ],
      [
        "Ġp",
        "unc"
      ],
      [
        "Ġval",
        "ue"
      ],
      [
        ")",
        ")"
      ],
      [
        ")",
        "["
      ],
      [
        "3",
        "6"
      ],
      [
        "3",
        "7"
      ],
      [
        "5",
        "37"
      ],
      [
        "<",
        ">"
      ],
      [
        "B",
        "A"
      ],
      [
        "B",
        "B"
      ],
      [
        "C",
        "heck"
      ],
      [
        "E",
        "R"
      ],
      [
        "E",
        "rr"
      ],
      [
        "W",
        "e"
      ],
      [
        "[",
        "^"
      ],
      [
        "]",
        "+"
      ],
      [
        "`",
        "',"
      ],
      [
        "a",
        "se"
      ],
      [
        "i",
        "ct"
      ],
      [
        "l",
        "se"
      ],
      [
        "m",
        "e"
      ],
      [
        "o",
        "f"
      ],
      [
        "p",
        "a"
      ],
      [
        "p",
        "t"
      ],
      [
        "p",
        "le"
      ],
      [
        "u",
        "s"
      ],
      [
        "y",
        "p"
      ],
      [
        "z",
        "i"
      ],
      [
        "Ġ",
        ")"
      ],
      [
        "Ġ",
        "*"
      ],
      [
        "Ġ",
        "B"
      ],
      [
        "Ġ",
        "duplic"
      ],
      [
        "Ġ",
        "segment"
      ],
      [
        "Ġ",
        "duplicate"
      ],
      [
        "Ġ",
        "entry"
      ],
      [
        "Ġ",
        "utf"
      ],
      [
        "or",
        "e"
      ],
      [
        "or",
        "der"
      ],
      [
        "se",
        "d"
      ],
      [
        "th",
        "e"
      ],
      [
        "Ġ'",
        "*"
      ],
      [
        "Ġ'",
        "`"
      ],
      [
        "Ġc",
        "ategories"
      ],
      [
        "Ġc",
        "oding"
      ],
      [
        "ex",
        "it"
      ],
      [
        "re",
        "turn"
      ],
      [
        "Ġa",
        "re"
      ],
      [
        "ou",
        "r"
      ],
      [
        "at",
        "es"
      ],
      [
        "Ġt",
        "o"
      ],
      [
        "Ġt",
        "uple"
      ],
      [
        "](",
        "#"
      ],
      [
        "Ġm",
        "in"
      ],
      [
        "ake",
        "Response"
      ],
      [
        "ĠF",
        "alse"
      ],
      [
        "ĠF",
        "akeResponse"
      ],
      [
        "Ġe",
        "lse"
      ],
      [
        "act",
        "er"
      ],
      [
        "Ġd",
        "o"
      ],
      [
        "ER",
        "R"
      ],
      [
        "Err",
        "or"
      ],
      [
        "[^",
        "\\"
      ],
      [
        "Ġduplic",
        "ates"
      ],
      [
        "'",
        "{"
      ],
      [
        "\\",
        "("
      ],
      [
        "a",
        "d"
      ],
      [
        "a",
        "ve"
      ],
      [
        "b",
        "er"
      ],
      [
        "c",
        "f"
      ],
      [
        "d",
        "red"
      ],
      [
        "g",
        "rou"
      ],
      [
        "h",
        "ar"
      ],
      [
        "h",
        "un"
      ],
      [
        "i",
        "tle"
      ],
      [
        "k",
        "no"
      ],
      [
        "l",
        "on"
      ],
      [
        "n",
        "d"
      ],
      [
        "n",
        "t"
      ],
      [
        "r",
        "ow"
      ],
      [
        "s",
        "and"
      ],
      [
        "w",
        "n"
      ],
      [
        "y",
        "our"
      ],
      [
        "Ġ",
        "+"
      ],
      [
        "Ġ",
        ":"
      ],
      [
        "Ġ",
        "I"
      ],
      [
        "Ġ",
        "S"
      ],
      [
        "Ġ",
        "W"
      ],
      [
        "Ġ",
        "w"
      ],
      [
        "Ġ",
        "msg"
      ],
      [
        "Ġ",
        "protection"
      ],
      [
        "Ġ",
        "unit"
      ],
      [
        "Ġ",
        "only"
      ],
      [
        "Ġ",
        "your"
      ],
      [
        "er",
        "e"
      ],
      [
        "in",
        "ue"
      ],
      [
        "th",
        "ou"
      ],
      [
        "Ġ|",
        "'"
      ],
      [
        "on",
        "e"
      ],
      [
        "Ġc",
        "har"
      ],
      [
        "ex",
        "ception"
      ],
      [
        "ou",
        "nd"
      ],
      [
        "Ġin",
        "valid"
      ],
      [
        "Ġh",
        "ave"
      ],
      [
        "ar",
        "gs"
      ],
      [
        "ĠT",
        "uple"
      ],
      [
        "content",
        "s"
      ],
      [
        "Ġan",
        "y"
      ],
      [
        "()",
        "<>"
      ],
      [
        "Ġcor",
        "rect"
      ],
      [
        "Ġb",
        "row"
      ],
      [
        "unit",
        "y"
      ],
      [
        "arg",
        "v"
      ],
      [
        "ĠN",
        "one"
      ],
      [
        "Ġcont",
        "inue"
      ],
      [
        "Ġexce",
        "pt"
      ],
      [
        "Ġpunc",
        "tuation"
      ],
      [
        "grou",
        "p"
      ],
      [
        "hun",
        "dred"
      ],
      [
        "kno",
        "wn"
      ],
      [
        "lon",
        "g"
      ],
      [
        "nt",
        "ax"
      ],
      [
        "thou",
        "sand"
      ],
      [
        "Ġchar",
        "acter"
      ],
      [
        "exception",
        "s"
      ],
      [
        "()<>",
        "]+"
      ],
      [
        "Ġbrow",
        "ser"
      ],
      [
        "\"",
        "."
      ],
      [
        ")",
        "')"
      ],
      [
        ".",
        "',"
      ],
      [
        "0",
        "1"
      ],
      [
        "6",
        "4"
      ],
      [
        "=",
        "'"
      ],
      [
        "A",
        "C"
      ],
      [
        "F",
        "alse"
      ],
      [
        "G",
        "eck"
      ],
      [
        "K",
        "it"
      ],
      [
        "K",
        "HT"
      ],
      [
        "M",
        "L"
      ],
      [
        "M",
        "o"
      ],
      [
        "R",
        "a"
      ],
      [
        "T",
        "rue"
      ],
      [
        "T",
        "his"
      ],
      [
        "U",
        "n"
      ],
      [
        "\\",
        "]"
      ],
      [
        "b",
        "Kit"
      ],
      [
        "c",
        "u"
      ],
      [
        "d",
        "en"
      ],
      [
        "f",
        "ind"
      ],
      [
        "f",
        "ound"
      ],
      [
        "h",
        "en"
      ],
      [
        "i",
        "tt"
      ],
      [
        "l",
        "la"
      ],
      [
        "l",
        "ow"
      ],
      [
        "m",
        "in"
      ],
      [
        "n",
        "e"
      ],
      [
        "o",
        "ol"
      ],
      [
        "o",
        "sed"
      ],
      [
        "p",
        "ile"
      ],
      [
        "p",
        "ub"
      ],
      [
        "p",
        "unc"
      ],
      [
        "p",
        "ple"
      ],
      [
        "t",
        "In"
      ],
      [
        "t",
        "ali"
      ],
      [
        "z",
        "ed"
      ],
      [
        "|",
        "')"
      ],
      [
        "â",
        "Ģ"
      ],
      [
        "Ġ",
        "3"
      ],
      [
        "Ġ",
        "<"
      ],
      [
        "Ġ",
        "U"
      ],
      [
        "Ġ",
        "li"
      ],
      [
        "Ġ",
        "Geck"
      ],
      [
        "Ġ",
        "ne"
      ],
      [
        "se",
        "ction"
      ],
      [
        "assert",
        "No"
      ],
      [
        "assert",
        "False"
      ],
      [
        "um",
        "n"
      ],
      [
        "com",
        "pile"
      ],
      [
        "Ġh",
        "eader"
      ],
      [
        "cl",
        "osed"
      ],
      [
        "Ġerror",
        "s"
      ],
      [
        "api",
        "s"
      ],
      [
        "api",
        "tali"
      ],
      [
        "ĠA",
        "pple"
      ],
      [
        "Ġ1",
        "0"
      ],
      [
        "Ġs",
        "pa"
      ],
      [
        "con",
        "d"
      ],
      [
        "un",
        "itt"
      ],
      [
        "('",
        "|')"
      ],
      [
        "ĠT",
        "his"
      ],
      [
        "Ġm",
        "ain"
      ],
      [
        "is",
        "s"
      ],
      [
        "error",
        "s"
      ],
      [
        "Ġsy",
        "ntax"
      ],
      [
        "backtick",
        "s"
      ],
      [
        "ir",
        "d"
      ],
      [
        "and",
        "om"
      ],
      [
        "rr",
        "ent"
      ],
      [
        "ver",
        "y"
      ],
      [
        "Ġse",
        "en"
      ],
      [
        "ol",
        "umn"
      ],
      [
        "Ġen",
        "closed"
      ],
      [
        "Ġal",
        "phabetical"
      ],
      [
        "Ġ\"",
        "..."
      ],
      [
        "We",
        "bKit"
      ],
      [
        "yp",
        "e"
      ],
      [
        "zi",
        "lla"
      ],
      [
        "Ġdo",
        "es"
      ],
      [
        "KHT",
        "ML"
      ],
      [
        "Mo",
        "zilla"
      ],
      [
        "Un",
        "known"
      ],
      [
        "pub",
        "lic"
      ],
      [
        "Ġli",
        "ke"
      ],
      [
        "ĠGeck",
        "o"
      ],
      [
        "assertNo",
        "tIn"
      ],
      [
        "apitali",
        "zed"
      ],
      [
        "ĠApple",
        "WebKit"
      ],
      [
        "Ġspa",
        "ce"
      ],
      [
        "unitt",
        "est"
      ],
      [
        "'",
        "):"
      ],
      [
        "(",
        "."
      ],
      [
        "(",
        "?"
      ],
      [
        ")",
        "\""
      ],
      [
        ")",
        "'"
      ],
      [
        "*",
        "\\"
      ],
      [
        ".",
        "\"\"\""
      ],
      [
        "1",
        "5"
      ],
      [
        "C",
        "ategories"
      ],
      [
        "C",
        "loudflare"
      ],
      [
        "E",
        "x"
      ],
      [
        "E",
        "very"
      ],
      [
        "I",
        "N"
      ],
      [
        "I",
        "T"
      ],
      [
        "L",
        "E"
      ],
      [
        "L",
        "in"
      ],
      [
        "L",
        "IN"
      ],
      [
        "P",
        "le"
      ],
      [
        "R",
        "e"
      ],
      [
        "S",
        "er"
      ],
      [
        "T",
        "IT"
      ],
      [
        "W",
        "ind"
      ],
      [
        "\\",
        "["
      ],
      [
        "]",
        "."
      ]
    ]
  }
}